{
  "version": "1.0",
  "truncation": null,
  "padding": null,
  "added_tokens": [
    {
      "id": 0,
      "content": "[PAD]",
      "single_word": false,
      "lstrip": false,
      "rstrip": false,
      "normalized": false,
      "special": true
    },
    {
      "id": 1,
      "content": "[UNK]",
      "single_word": false,
      "lstrip": false,
      "rstrip": false,
      "normalized": false,
      "special": true
    },
    {
      "id": 2,
      "content": "[BOS]",
      "single_word": false,
      "lstrip": false,
      "rstrip": false,
      "normalized": false,
      "special": true
    },
    {
      "id": 3,
      "content": "[EOS]",
      "single_word": false,
      "lstrip": false,
      "rstrip": false,
      "normalized": false,
      "special": true
    }
  ],
  "normalizer": null,
  "pre_tokenizer": {
    "type": "Whitespace"
  },
  "post_processor": null,
  "decoder": null,
  "model": {
    "type": "BPE",
    "dropout": null,
    "unk_token": "[UNK]",
    "continuing_subword_prefix": null,
    "end_of_word_suffix": null,
    "fuse_unk": false,
    "byte_fallback": false,
    "ignore_merges": false,
    "vocab": {
      "[PAD]": 0,
      "[UNK]": 1,
      "[BOS]": 2,
      "[EOS]": 3,
      "!": 4,
      "\"": 5,
      "'": 6,
      "(": 7,
      ")": 8,
      "*": 9,
      ",": 10,
      "-": 11,
      ".": 12,
      ":": 13,
      ";": 14,
      "?": 15,
      "A": 16,
      "B": 17,
      "C": 18,
      "D": 19,
      "E": 20,
      "F": 21,
      "G": 22,
      "H": 23,
      "I": 24,
      "J": 25,
      "K": 26,
      "L": 27,
      "M": 28,
      "N": 29,
      "O": 30,
      "P": 31,
      "Q": 32,
      "R": 33,
      "S": 34,
      "T": 35,
      "U": 36,
      "V": 37,
      "W": 38,
      "X": 39,
      "Y": 40,
      "[": 41,
      "]": 42,
      "_": 43,
      "a": 44,
      "b": 45,
      "c": 46,
      "d": 47,
      "e": 48,
      "f": 49,
      "g": 50,
      "h": 51,
      "i": 52,
      "j": 53,
      "k": 54,
      "l": 55,
      "m": 56,
      "n": 57,
      "o": 58,
      "p": 59,
      "q": 60,
      "r": 61,
      "s": 62,
      "t": 63,
      "u": 64,
      "v": 65,
      "w": 66,
      "x": 67,
      "y": 68,
      "z": 69,
      "ù": 70,
      "he": 71,
      "the": 72,
      "in": 73,
      "an": 74,
      "ou": 75,
      "it": 76,
      "at": 77,
      "re": 78,
      "as": 79,
      "to": 80,
      "and": 81,
      "on": 82,
      "ing": 83,
      "ed": 84,
      "er": 85,
      "th": 86,
      "ll": 87,
      "ce": 88,
      "en": 89,
      "ar": 90,
      "li": 91,
      "se": 92,
      "of": 93,
      "she": 94,
      "ow": 95,
      "le": 96,
      "or": 97,
      "id": 98,
      "me": 99,
      "sa": 100,
      "was": 101,
      "st": 102,
      "Ali": 103,
      "Alice": 104,
      "is": 105,
      "her": 106,
      "ly": 107,
      "ad": 108,
      "be": 109,
      "said": 110,
      "all": 111,
      "ch": 112,
      "you": 113,
      "oo": 114,
      "gh": 115,
      "!\"": 116,
      "ver": 117,
      "ke": 118,
      "out": 119,
      "that": 120,
      "ld": 121,
      "ge": 122,
      "wh": 123,
      "ve": 124,
      "ti": 125,
      "no": 126,
      ",\"": 127,
      "ab": 128,
      "so": 129,
      "ri": 130,
      "al": 131,
      "sh": 132,
      "nd": 133,
      "ut": 134,
      "ent": 135,
      "The": 136,
      "ne": 137,
      "wit": 138,
      "with": 139,
      "do": 140,
      "ght": 141,
      "tle": 142,
      "--": 143,
      "ay": 144,
      "ro": 145,
      "ther": 146,
      "ir": 147,
      "go": 148,
      "had": 149,
      "lit": 150,
      "ould": 151,
      "up": 152,
      "ur": 153,
      "little": 154,
      "we": 155,
      "own": 156,
      "ust": 157,
      "ain": 158,
      "thing": 159,
      "qu": 160,
      "ss": 161,
      "ard": 162,
      "?\"": 163,
      "for": 164,
      "ck": 165,
      "ion": 166,
      "very": 167,
      "ca": 168,
      "mo": 169,
      "sel": 170,
      "down": 171,
      "ound": 172,
      "one": 173,
      "ook": 174,
      ".\"": 175,
      "ouse": 176,
      "es": 177,
      "fe": 178,
      "self": 179,
      "ag": 180,
      "now": 181,
      "ter": 182,
      "ind": 183,
      "but": 184,
      "et": 185,
      "way": 186,
      "they": 187,
      "into": 188,
      "hen": 189,
      "not": 190,
      "She": 191,
      "ra": 192,
      "this": 193,
      "bit": 194,
      "ill": 195,
      "see": 196,
      "su": 197,
      "ite": 198,
      "like": 199,
      "Wh": 200,
      "op": 201,
      "am": 202,
      "che": 203,
      "gr": 204,
      "look": 205,
      "te": 206,
      "ation": 207,
      "herself": 208,
      "other": 209,
      "about": 210,
      "again": 211,
      "lo": 212,
      "when": 213,
      "them": 214,
      "off": 215,
      "some": 216,
      "were": 217,
      "ave": 218,
      "king": 219,
      "im": 220,
      "ice": 221,
      "las": 222,
      "lar": 223,
      "po": 224,
      "ry": 225,
      "ue": 226,
      "get": 227,
      "could": 228,
      "de": 229,
      "too": 230,
      "abbit": 231,
      "are": 232,
      "ake": 233,
      "if": 234,
      "ought": 235,
      "ong": 236,
      "beg": 237,
      "co": 238,
      "pe": 239,
      "pl": 240,
      "ting": 241,
      "whi": 242,
      "what": 243,
      "time": 244,
      "ried": 245,
      "door": 246,
      "Du": 247,
      "Rabbit": 248,
      "went": 249,
      "then": 250,
      "reat": 251,
      "Cat": 252,
      "Que": 253,
      "bo": 254,
      "cu": 255,
      "oice": 256,
      "any": 257,
      "its": 258,
      "came": 259,
      "Queen": 260,
      "Ill": 261,
      "Mouse": 262,
      "ling": 263,
      "my": 264,
      "ration": 265,
      "ink": 266,
      "our": 267,
      "ustration": 268,
      "large": 269,
      "Illustration": 270,
      "fu": 271,
      "pp": 272,
      "si": 273,
      "un": 274,
      "voice": 275,
      "here": 276,
      "erp": 277,
      "thought": 278,
      "more": 279,
      "chess": 280,
      "Duchess": 281,
      "It": 282,
      "by": 283,
      "fo": 284,
      "his": 285,
      "ked": 286,
      "led": 287,
      "low": 288,
      "mu": 289,
      "ment": 290,
      "ning": 291,
      "ate": 292,
      "ers": 293,
      "ide": 294,
      "con": 295,
      "ep": 296,
      "know": 297,
      "art": 298,
      "right": 299,
      "got": 300,
      "which": 301,
      "found": 302,
      "hand": 303,
      "wor": 304,
      "there": 305,
      "who": 306,
      "ves": 307,
      "quite": 308,
      "af": 309,
      "ack": 310,
      "cro": 311,
      "ever": 312,
      "fa": 313,
      "mb": 314,
      "round": 315,
      "ure": 316,
      "head": 317,
      "ough": 318,
      "ree": 319,
      "leas": 320,
      "able": 321,
      "There": 322,
      "moment": 323,
      "began": 324,
      "ct": 325,
      "di": 326,
      "ded": 327,
      "est": 328,
      "gard": 329,
      "great": 330,
      "heard": 331,
      "think": 332,
      "say": 333,
      "ish": 334,
      "ood": 335,
      "oot": 336,
      "irst": 337,
      "looked": 338,
      "garden": 339,
      "can": 340,
      "cat": 341,
      "dd": 342,
      "fro": 343,
      "find": 344,
      "ho": 345,
      "how": 346,
      "ight": 347,
      "just": 348,
      "med": 349,
      "tw": 350,
      "table": 351,
      "und": 352,
      "ant": 353,
      "arm": 354,
      "grow": 355,
      "last": 356,
      "And": 357,
      "How": 358,
      "Oh": 359,
      "back": 360,
      "ds": 361,
      "have": 362,
      "roo": 363,
      "tur": 364,
      "won": 365,
      "ous": 366,
      "only": 367,
      "soon": 368,
      "well": 369,
      "dear": 370,
      "dden": 371,
      "under": 372,
      "room": 373,
      "air": 374,
      "away": 375,
      "cr": 376,
      "did": 377,
      "ex": 378,
      "hur": 379,
      "house": 380,
      "lt": 381,
      "long": 382,
      "over": 383,
      "sw": 384,
      "tal": 385,
      "would": 386,
      "red": 387,
      "should": 388,
      "upon": 389,
      "illar": 390,
      "erpillar": 391,
      "fore": 392,
      "much": 393,
      "from": 394,
      "So": 395,
      "You": 396,
      "don": 397,
      "ey": 398,
      "fan": 399,
      "first": 400,
      "ha": 401,
      "hi": 402,
      "mad": 403,
      "make": 404,
      "pi": 405,
      "side": 406,
      "us": 407,
      "atter": 408,
      "ened": 409,
      "les": 410,
      "your": 411,
      "tion": 412,
      "going": 413,
      "feet": 414,
      "took": 415,
      "com": 416,
      "Caterpillar": 417,
      "two": 418,
      "Mar": 419,
      "call": 420,
      "dge": 421,
      "gs": 422,
      "mar": 423,
      "pleas": 424,
      "ran": 425,
      "use": 426,
      "wa": 427,
      "once": 428,
      "same": 429,
      "before": 430,
      "nothing": 431,
      "seemed": 432,
      "sudden": 433,
      "What": 434,
      "looking": 435,
      "play": 436,
      "high": 437,
      "As": 438,
      "Do": 439,
      "He": 440,
      "cried": 441,
      "cour": 442,
      "foot": 443,
      "glo": 444,
      "ither": 445,
      "min": 446,
      "mid": 447,
      "mall": 448,
      "must": 449,
      "mouse": 450,
      "xt": 451,
      "ze": 452,
      "ang": 453,
      "tone": 454,
      "thr": 455,
      "ort": 456,
      "key": 457,
      "noti": 458,
      "near": 459,
      "never": 460,
      "rather": 461,
      "something": 462,
      "rying": 463,
      "full": 464,
      "eyes": 465,
      "gloves": 466,
      "minut": 467,
      "No": 468,
      "Th": 469,
      "ah": 470,
      "ble": 471,
      "der": 472,
      "day": 473,
      "glas": 474,
      "good": 475,
      "has": 476,
      "mp": 477,
      "man": 478,
      "put": 479,
      "sto": 480,
      "small": 481,
      "ten": 482,
      "ttle": 483,
      "tain": 484,
      "take": 485,
      "their": 486,
      "another": 487,
      "read": 488,
      "ence": 489,
      "set": 490,
      "mean": 491,
      "ool": 492,
      "next": 493,
      "--\"": 494,
      "quet": 495,
      "quest": 496,
      "such": 497,
      "among": 498,
      "tell": 499,
      "come": 500,
      "pped": 501,
      "size": 502,
      "after": 503,
      "croquet": 504,
      "face": 505,
      "made": 506,
      "called": 507,
      "glass": 508,
      "At": 509,
      "But": 510,
      "HE": 511,
      "King": 512,
      "We": 513,
      "ced": 514,
      "fall": 515,
      "hall": 516,
      "hal": 517,
      "ire": 518,
      "ned": 519,
      "pas": 520,
      "tre": 521,
      "uck": 522,
      "ven": 523,
      "wal": 524,
      "wind": 525,
      "wish": 526,
      "hear": 527,
      "hedge": 528,
      "ine": 529,
      "rep": 530,
      "than": 531,
      "been": 532,
      "ally": 533,
      "rious": 534,
      "Then": 535,
      "White": 536,
      "ope": 537,
      "getting": 538,
      "bottle": 539,
      "erpent": 540,
      "cats": 541,
      "growing": 542,
      "suddenly": 543,
      "through": 544,
      "question": 545,
      "half": 546,
      "Co": 547,
      "Hare": 548,
      "Hatter": 549,
      "ND": 550,
      "THE": 551,
      "ap": 552,
      "au": 553,
      "ame": 554,
      "ach": 555,
      "aking": 556,
      "bir": 557,
      "cer": 558,
      "clo": 559,
      "ction": 560,
      "el": 561,
      "ear": 562,
      "every": 563,
      "either": 564,
      "ft": 565,
      "hard": 566,
      "il": 567,
      "ose": 568,
      "pt": 569,
      "pool": 570,
      "sit": 571,
      "tried": 572,
      "vi": 573,
      "will": 574,
      "inking": 575,
      "atch": 576,
      "three": 577,
      "those": 578,
      "end": 579,
      "owed": 580,
      "leep": 581,
      "left": 582,
      "geon": 583,
      "why": 584,
      "white": 585,
      "till": 586,
      "tily": 587,
      "shroom": 588,
      "ently": 589,
      "without": 590,
      "urp": 591,
      "Why": 592,
      "ches": 593,
      "mushroom": 594,
      "arty": 595,
      "cross": 596,
      "wonder": 597,
      "talking": 598,
      "March": 599,
      "please": 600,
      "wait": 601,
      "Dodo": 602,
      "course": 603,
      "fully": 604,
      "minute": 605,
      "That": 606,
      "hastily": 607,
      "window": 608,
      "Come": 609,
      "birds": 610,
      "close": 611,
      "AR": 612,
      "Af": 613,
      "An": 614,
      "Din": 615,
      "II": 616,
      "In": 617,
      "Just": 618,
      "Of": 619,
      "Pi": 620,
      "This": 621,
      "bb": 622,
      "bab": 623,
      "creat": 624,
      "dy": 625,
      "dry": 626,
      "eat": 627,
      "fl": 628,
      "him": 629,
      "ist": 630,
      "ive": 631,
      "ju": 632,
      "mor": 633,
      "mind": 634,
      "might": 635,
      "pro": 636,
      "pair": 637,
      "party": 638,
      "row": 639,
      "ris": 640,
      "sir": 641,
      "sation": 642,
      "stoo": 643,
      "sort": 644,
      "serpent": 645,
      "surp": 646,
      "ta": 647,
      "ted": 648,
      "tree": 649,
      "trying": 650,
      "ving": 651,
      "wood": 652,
      "zes": 653,
      "anim": 654,
      "remar": 655,
      "ast": 656,
      "toge": 657,
      "enough": 658,
      "lied": 659,
      "leave": 660,
      "orn": 661,
      "added": 662,
      "chan": 663,
      "lden": 664,
      "timid": 665,
      "golden": 666,
      "ury": 667,
      "ssed": 668,
      "ards": 669,
      "cause": 670,
      "felt": 671,
      "race": 672,
      "raid": 673,
      "open": 674,
      "opened": 675,
      "tea": 676,
      "poor": 677,
      "plain": 678,
      "while": 679,
      "curious": 680,
      "anything": 681,
      "ful": 682,
      "idea": 683,
      "arts": 684,
      "words": 685,
      "afraid": 686,
      "mbling": 687,
      "ures": 688,
      "dire": 689,
      "However": 690,
      "turned": 691,
      "crow": 692,
      "hurried": 693,
      "talk": 694,
      "happ": 695,
      "noticed": 696,
      "walked": 697,
      "replied": 698,
      "certain": 699,
      "sitting": 700,
      "After": 701,
      "Dinah": 702,
      "Pigeon": 703,
      "baby": 704,
      "animal": 705,
      "together": 706,
      "'\"": 707,
      "Bill": 708,
      "Che": 709,
      "Dor": 710,
      "Foot": 711,
      "Now": 712,
      "RA": 713,
      "Would": 714,
      "When": 715,
      "Where": 716,
      "_I": 717,
      "_that": 718,
      "across": 719,
      "bro": 720,
      "book": 721,
      "bright": 722,
      "cke": 723,
      "cur": 724,
      "dr": 725,
      "dle": 726,
      "dly": 727,
      "eed": 728,
      "far": 729,
      "fright": 730,
      "gone": 731,
      "ig": 732,
      "ick": 733,
      "ious": 734,
      "ken": 735,
      "kid": 736,
      "kne": 737,
      "lad": 738,
      "ni": 739,
      "pa": 740,
      "pu": 741,
      "pre": 742,
      "ru": 743,
      "ring": 744,
      "rate": 745,
      "sp": 746,
      "sat": 747,
      "sne": 748,
      "spe": 749,
      "sleep": 750,
      "tin": 751,
      "tter": 752,
      "ved": 753,
      "whe": 754,
      "inches": 755,
      "ance": 756,
      "ren": 757,
      "ret": 758,
      "ener": 759,
      "ended": 760,
      "less": 761,
      "saw": 762,
      "best": 763,
      "chim": 764,
      "kept": 765,
      "whis": 766,
      "rial": 767,
      "rizes": 768,
      "shout": 769,
      "shire": 770,
      "They": 771,
      "ney": 772,
      "neck": 773,
      "cake": 774,
      "fell": 775,
      "indeed": 776,
      "Who": 777,
      "grin": 778,
      "against": 779,
      "love": 780,
      "offended": 781,
      "deal": 782,
      "begin": 783,
      "times": 784,
      "box": 785,
      "body": 786,
      "hands": 787,
      "work": 788,
      "arms": 789,
      "turning": 790,
      "marked": 791,
      "Well": 792,
      "hedgeho": 793,
      "stood": 794,
      "change": 795,
      "direction": 796,
      "Cheshire": 797,
      "Dormouse": 798,
      "Footman": 799,
      "cket": 800,
      "snee": 801,
      "chimney": 802,
      "),": 803,
      "AD": 804,
      "AND": 805,
      "BI": 806,
      "En": 807,
      "For": 808,
      "First": 809,
      "IN": 810,
      "If": 811,
      "Kn": 812,
      "LE": 813,
      "Let": 814,
      "On": 815,
      "Su": 816,
      "Will": 817,
      "_is": 818,
      "_you": 819,
      "_not": 820,
      "_what": 821,
      "ak": 822,
      "act": 823,
      "corn": 824,
      "dre": 825,
      "dar": 826,
      "dro": 827,
      "done": 828,
      "ece": 829,
      "even": 830,
      "ger": 831,
      "gli": 832,
      "gave": 833,
      "gue": 834,
      "game": 835,
      "gener": 836,
      "hope": 837,
      "ishe": 838,
      "ily": 839,
      "ild": 840,
      "ky": 841,
      "late": 842,
      "mn": 843,
      "ol": 844,
      "ps": 845,
      "pat": 846,
      "ron": 847,
      "rid": 848,
      "run": 849,
      "rinking": 850,
      "sli": 851,
      "sent": 852,
      "sion": 853,
      "sound": 854,
      "spo": 855,
      "slow": 856,
      "want": 857,
      "xious": 858,
      "yet": 859,
      "zing": 860,
      "height": 861,
      "these": 862,
      "answ": 863,
      "anxious": 864,
      "ouble": 865,
      "itself": 866,
      "ater": 867,
      "reme": 868,
      "rely": 869,
      "reach": 870,
      "asked": 871,
      "ons": 872,
      "llowed": 873,
      "arp": 874,
      "arch": 875,
      "seen": 876,
      "sage": 877,
      "stand": 878,
      "start": 879,
      "stance": 880,
      "beau": 881,
      "chin": 882,
      "chang": 883,
      "child": 884,
      "versation": 885,
      "ldi": 886,
      "lded": 887,
      "tired": 888,
      "soldi": 889,
      "along": 890,
      "show": 891,
      "shri": 892,
      "shut": 893,
      "shrinking": 894,
      "sharp": 895,
      "does": 896,
      "rose": 897,
      "que": 898,
      "qui": 899,
      "ssi": 900,
      "forgot": 901,
      "cking": 902,
      "cked": 903,
      "care": 904,
      "sure": 905,
      "ople": 906,
      "ched": 907,
      "ground": 908,
      "teles": 909,
      "larger": 910,
      "pocket": 911,
      "possi": 912,
      "peep": 913,
      "people": 914,
      "myself": 915,
      "followed": 916,
      "ately": 917,
      "confu": 918,
      "conversation": 919,
      "whole": 920,
      "fact": 921,
      "mber": 922,
      "least": 923,
      "antly": 924,
      "makes": 925,
      "piece": 926,
      "coming": 927,
      "Mary": 928,
      "Here": 929,
      "Hearts": 930,
      "middle": 931,
      "notice": 932,
      "passage": 933,
      "viol": 934,
      "waiting": 935,
      "Ann": 936,
      "Off": 937,
      "rised": 938,
      "surprised": 939,
      "timidly": 940,
      "crowded": 941,
      "happen": 942,
      "certainly": 943,
      "animals": 944,
      "_I_": 945,
      "_that_": 946,
      "broken": 947,
      "nibb": 948,
      "whether": 949,
      "Engli": 950,
      "Knave": 951,
      "_is_": 952,
      "_you_": 953,
      "_not_": 954,
      "_what_": 955,
      "ished": 956,
      "running": 957,
      "spoke": 958,
      "slowly": 959,
      "anxiously": 960,
      "beauti": 961,
      "telesc": 962,
      "English": 963,
      ").": 964,
      ".'": 965,
      "..": 966,
      "Are": 967,
      "BBI": 968,
      "CE": 969,
      "Can": 970,
      "EN": 971,
      "ER": 972,
      "Her": 973,
      "One": 974,
      "Pat": 975,
      "QU": 976,
      "RO": 977,
      "Take": 978,
      "_was": 979,
      "ban": 980,
      "bed": 981,
      "car": 982,
      "cut": 983,
      "cook": 984,
      "cry": 985,
      "dif": 986,
      "eg": 987,
      "ek": 988,
      "eas": 989,
      "each": 990,
      "fi": 991,
      "fin": 992,
      "fur": 993,
      "flow": 994,
      "fire": 995,
      "gg": 996,
      "give": 997,
      "glad": 998,
      "hook": 999,
      "hind": 1000,
      "ise": 1001,
      "iam": 1002,
      "jury": 1003,
      "kno": 1004,
      "la": 1005,
      "lp": 1006,
      "lou": 1007,
      "lence": 1008,
      "mou": 1009,
      "many": 1010,
      "making": 1011,
      "nine": 1012,
      "name": 1013,
      "ore": 1014,
      "pard": 1015,
      "patter": 1016,
      "port": 1017,
      "prizes": 1018,
      "rat": 1019,
      "rabbit": 1020,
      "rouble": 1021,
      "sin": 1022,
      "sou": 1023
    },
    "merges": [
      [
        "h",
        "e"
      ],
      [
        "t",
        "he"
      ],
      [
        "i",
        "n"
      ],
      [
        "a",
        "n"
      ],
      [
        "o",
        "u"
      ],
      [
        "i",
        "t"
      ],
      [
        "a",
        "t"
      ],
      [
        "r",
        "e"
      ],
      [
        "a",
        "s"
      ],
      [
        "t",
        "o"
      ],
      [
        "an",
        "d"
      ],
      [
        "o",
        "n"
      ],
      [
        "in",
        "g"
      ],
      [
        "e",
        "d"
      ],
      [
        "e",
        "r"
      ],
      [
        "t",
        "h"
      ],
      [
        "l",
        "l"
      ],
      [
        "c",
        "e"
      ],
      [
        "e",
        "n"
      ],
      [
        "a",
        "r"
      ],
      [
        "l",
        "i"
      ],
      [
        "s",
        "e"
      ],
      [
        "o",
        "f"
      ],
      [
        "s",
        "he"
      ],
      [
        "o",
        "w"
      ],
      [
        "l",
        "e"
      ],
      [
        "o",
        "r"
      ],
      [
        "i",
        "d"
      ],
      [
        "m",
        "e"
      ],
      [
        "s",
        "a"
      ],
      [
        "w",
        "as"
      ],
      [
        "s",
        "t"
      ],
      [
        "A",
        "li"
      ],
      [
        "Ali",
        "ce"
      ],
      [
        "i",
        "s"
      ],
      [
        "he",
        "r"
      ],
      [
        "l",
        "y"
      ],
      [
        "a",
        "d"
      ],
      [
        "b",
        "e"
      ],
      [
        "sa",
        "id"
      ],
      [
        "a",
        "ll"
      ],
      [
        "c",
        "h"
      ],
      [
        "y",
        "ou"
      ],
      [
        "o",
        "o"
      ],
      [
        "g",
        "h"
      ],
      [
        "!",
        "\""
      ],
      [
        "v",
        "er"
      ],
      [
        "k",
        "e"
      ],
      [
        "ou",
        "t"
      ],
      [
        "th",
        "at"
      ],
      [
        "l",
        "d"
      ],
      [
        "g",
        "e"
      ],
      [
        "w",
        "h"
      ],
      [
        "v",
        "e"
      ],
      [
        "t",
        "i"
      ],
      [
        "n",
        "o"
      ],
      [
        ",",
        "\""
      ],
      [
        "a",
        "b"
      ],
      [
        "s",
        "o"
      ],
      [
        "r",
        "i"
      ],
      [
        "a",
        "l"
      ],
      [
        "s",
        "h"
      ],
      [
        "n",
        "d"
      ],
      [
        "u",
        "t"
      ],
      [
        "en",
        "t"
      ],
      [
        "T",
        "he"
      ],
      [
        "n",
        "e"
      ],
      [
        "w",
        "it"
      ],
      [
        "wit",
        "h"
      ],
      [
        "d",
        "o"
      ],
      [
        "gh",
        "t"
      ],
      [
        "t",
        "le"
      ],
      [
        "-",
        "-"
      ],
      [
        "a",
        "y"
      ],
      [
        "r",
        "o"
      ],
      [
        "the",
        "r"
      ],
      [
        "i",
        "r"
      ],
      [
        "g",
        "o"
      ],
      [
        "h",
        "ad"
      ],
      [
        "l",
        "it"
      ],
      [
        "ou",
        "ld"
      ],
      [
        "u",
        "p"
      ],
      [
        "u",
        "r"
      ],
      [
        "lit",
        "tle"
      ],
      [
        "w",
        "e"
      ],
      [
        "ow",
        "n"
      ],
      [
        "u",
        "st"
      ],
      [
        "a",
        "in"
      ],
      [
        "th",
        "ing"
      ],
      [
        "q",
        "u"
      ],
      [
        "s",
        "s"
      ],
      [
        "ar",
        "d"
      ],
      [
        "?",
        "\""
      ],
      [
        "f",
        "or"
      ],
      [
        "c",
        "k"
      ],
      [
        "i",
        "on"
      ],
      [
        "ver",
        "y"
      ],
      [
        "c",
        "a"
      ],
      [
        "m",
        "o"
      ],
      [
        "se",
        "l"
      ],
      [
        "d",
        "own"
      ],
      [
        "ou",
        "nd"
      ],
      [
        "on",
        "e"
      ],
      [
        "oo",
        "k"
      ],
      [
        ".",
        "\""
      ],
      [
        "ou",
        "se"
      ],
      [
        "e",
        "s"
      ],
      [
        "f",
        "e"
      ],
      [
        "sel",
        "f"
      ],
      [
        "a",
        "g"
      ],
      [
        "n",
        "ow"
      ],
      [
        "t",
        "er"
      ],
      [
        "in",
        "d"
      ],
      [
        "b",
        "ut"
      ],
      [
        "e",
        "t"
      ],
      [
        "w",
        "ay"
      ],
      [
        "the",
        "y"
      ],
      [
        "in",
        "to"
      ],
      [
        "he",
        "n"
      ],
      [
        "no",
        "t"
      ],
      [
        "S",
        "he"
      ],
      [
        "r",
        "a"
      ],
      [
        "th",
        "is"
      ],
      [
        "b",
        "it"
      ],
      [
        "i",
        "ll"
      ],
      [
        "se",
        "e"
      ],
      [
        "s",
        "u"
      ],
      [
        "it",
        "e"
      ],
      [
        "li",
        "ke"
      ],
      [
        "W",
        "h"
      ],
      [
        "o",
        "p"
      ],
      [
        "a",
        "m"
      ],
      [
        "c",
        "he"
      ],
      [
        "g",
        "r"
      ],
      [
        "l",
        "ook"
      ],
      [
        "t",
        "e"
      ],
      [
        "at",
        "ion"
      ],
      [
        "her",
        "self"
      ],
      [
        "o",
        "ther"
      ],
      [
        "ab",
        "out"
      ],
      [
        "ag",
        "ain"
      ],
      [
        "l",
        "o"
      ],
      [
        "w",
        "hen"
      ],
      [
        "the",
        "m"
      ],
      [
        "of",
        "f"
      ],
      [
        "so",
        "me"
      ],
      [
        "we",
        "re"
      ],
      [
        "a",
        "ve"
      ],
      [
        "k",
        "ing"
      ],
      [
        "i",
        "m"
      ],
      [
        "i",
        "ce"
      ],
      [
        "l",
        "as"
      ],
      [
        "l",
        "ar"
      ],
      [
        "p",
        "o"
      ],
      [
        "r",
        "y"
      ],
      [
        "u",
        "e"
      ],
      [
        "ge",
        "t"
      ],
      [
        "c",
        "ould"
      ],
      [
        "d",
        "e"
      ],
      [
        "to",
        "o"
      ],
      [
        "ab",
        "bit"
      ],
      [
        "a",
        "re"
      ],
      [
        "a",
        "ke"
      ],
      [
        "i",
        "f"
      ],
      [
        "ou",
        "ght"
      ],
      [
        "on",
        "g"
      ],
      [
        "be",
        "g"
      ],
      [
        "c",
        "o"
      ],
      [
        "p",
        "e"
      ],
      [
        "p",
        "l"
      ],
      [
        "t",
        "ing"
      ],
      [
        "wh",
        "i"
      ],
      [
        "wh",
        "at"
      ],
      [
        "ti",
        "me"
      ],
      [
        "ri",
        "ed"
      ],
      [
        "do",
        "or"
      ],
      [
        "D",
        "u"
      ],
      [
        "R",
        "abbit"
      ],
      [
        "w",
        "ent"
      ],
      [
        "the",
        "n"
      ],
      [
        "re",
        "at"
      ],
      [
        "C",
        "at"
      ],
      [
        "Q",
        "ue"
      ],
      [
        "b",
        "o"
      ],
      [
        "c",
        "u"
      ],
      [
        "o",
        "ice"
      ],
      [
        "an",
        "y"
      ],
      [
        "it",
        "s"
      ],
      [
        "ca",
        "me"
      ],
      [
        "Que",
        "en"
      ],
      [
        "I",
        "ll"
      ],
      [
        "M",
        "ouse"
      ],
      [
        "l",
        "ing"
      ],
      [
        "m",
        "y"
      ],
      [
        "r",
        "ation"
      ],
      [
        "in",
        "k"
      ],
      [
        "ou",
        "r"
      ],
      [
        "ust",
        "ration"
      ],
      [
        "lar",
        "ge"
      ],
      [
        "Ill",
        "ustration"
      ],
      [
        "f",
        "u"
      ],
      [
        "p",
        "p"
      ],
      [
        "s",
        "i"
      ],
      [
        "u",
        "n"
      ],
      [
        "v",
        "oice"
      ],
      [
        "he",
        "re"
      ],
      [
        "er",
        "p"
      ],
      [
        "th",
        "ought"
      ],
      [
        "mo",
        "re"
      ],
      [
        "che",
        "ss"
      ],
      [
        "Du",
        "chess"
      ],
      [
        "I",
        "t"
      ],
      [
        "b",
        "y"
      ],
      [
        "f",
        "o"
      ],
      [
        "h",
        "is"
      ],
      [
        "k",
        "ed"
      ],
      [
        "l",
        "ed"
      ],
      [
        "l",
        "ow"
      ],
      [
        "m",
        "u"
      ],
      [
        "m",
        "ent"
      ],
      [
        "n",
        "ing"
      ],
      [
        "at",
        "e"
      ],
      [
        "er",
        "s"
      ],
      [
        "id",
        "e"
      ],
      [
        "c",
        "on"
      ],
      [
        "e",
        "p"
      ],
      [
        "k",
        "now"
      ],
      [
        "ar",
        "t"
      ],
      [
        "ri",
        "ght"
      ],
      [
        "go",
        "t"
      ],
      [
        "whi",
        "ch"
      ],
      [
        "f",
        "ound"
      ],
      [
        "h",
        "and"
      ],
      [
        "w",
        "or"
      ],
      [
        "the",
        "re"
      ],
      [
        "wh",
        "o"
      ],
      [
        "ve",
        "s"
      ],
      [
        "qu",
        "ite"
      ],
      [
        "a",
        "f"
      ],
      [
        "a",
        "ck"
      ],
      [
        "c",
        "ro"
      ],
      [
        "e",
        "ver"
      ],
      [
        "f",
        "a"
      ],
      [
        "m",
        "b"
      ],
      [
        "r",
        "ound"
      ],
      [
        "u",
        "re"
      ],
      [
        "he",
        "ad"
      ],
      [
        "ou",
        "gh"
      ],
      [
        "re",
        "e"
      ],
      [
        "le",
        "as"
      ],
      [
        "ab",
        "le"
      ],
      [
        "The",
        "re"
      ],
      [
        "mo",
        "ment"
      ],
      [
        "beg",
        "an"
      ],
      [
        "c",
        "t"
      ],
      [
        "d",
        "i"
      ],
      [
        "d",
        "ed"
      ],
      [
        "e",
        "st"
      ],
      [
        "g",
        "ard"
      ],
      [
        "g",
        "reat"
      ],
      [
        "he",
        "ard"
      ],
      [
        "th",
        "ink"
      ],
      [
        "sa",
        "y"
      ],
      [
        "is",
        "h"
      ],
      [
        "oo",
        "d"
      ],
      [
        "oo",
        "t"
      ],
      [
        "ir",
        "st"
      ],
      [
        "look",
        "ed"
      ],
      [
        "gard",
        "en"
      ],
      [
        "c",
        "an"
      ],
      [
        "c",
        "at"
      ],
      [
        "d",
        "d"
      ],
      [
        "f",
        "ro"
      ],
      [
        "f",
        "ind"
      ],
      [
        "h",
        "o"
      ],
      [
        "h",
        "ow"
      ],
      [
        "i",
        "ght"
      ],
      [
        "j",
        "ust"
      ],
      [
        "m",
        "ed"
      ],
      [
        "t",
        "w"
      ],
      [
        "t",
        "able"
      ],
      [
        "u",
        "nd"
      ],
      [
        "an",
        "t"
      ],
      [
        "ar",
        "m"
      ],
      [
        "gr",
        "ow"
      ],
      [
        "las",
        "t"
      ],
      [
        "A",
        "nd"
      ],
      [
        "H",
        "ow"
      ],
      [
        "O",
        "h"
      ],
      [
        "b",
        "ack"
      ],
      [
        "d",
        "s"
      ],
      [
        "h",
        "ave"
      ],
      [
        "r",
        "oo"
      ],
      [
        "t",
        "ur"
      ],
      [
        "w",
        "on"
      ],
      [
        "ou",
        "s"
      ],
      [
        "on",
        "ly"
      ],
      [
        "so",
        "on"
      ],
      [
        "we",
        "ll"
      ],
      [
        "de",
        "ar"
      ],
      [
        "dd",
        "en"
      ],
      [
        "und",
        "er"
      ],
      [
        "roo",
        "m"
      ],
      [
        "a",
        "ir"
      ],
      [
        "a",
        "way"
      ],
      [
        "c",
        "r"
      ],
      [
        "d",
        "id"
      ],
      [
        "e",
        "x"
      ],
      [
        "h",
        "ur"
      ],
      [
        "h",
        "ouse"
      ],
      [
        "l",
        "t"
      ],
      [
        "l",
        "ong"
      ],
      [
        "o",
        "ver"
      ],
      [
        "s",
        "w"
      ],
      [
        "t",
        "al"
      ],
      [
        "w",
        "ould"
      ],
      [
        "re",
        "d"
      ],
      [
        "sh",
        "ould"
      ],
      [
        "up",
        "on"
      ],
      [
        "ill",
        "ar"
      ],
      [
        "erp",
        "illar"
      ],
      [
        "fo",
        "re"
      ],
      [
        "mu",
        "ch"
      ],
      [
        "fro",
        "m"
      ],
      [
        "S",
        "o"
      ],
      [
        "Y",
        "ou"
      ],
      [
        "d",
        "on"
      ],
      [
        "e",
        "y"
      ],
      [
        "f",
        "an"
      ],
      [
        "f",
        "irst"
      ],
      [
        "h",
        "a"
      ],
      [
        "h",
        "i"
      ],
      [
        "m",
        "ad"
      ],
      [
        "m",
        "ake"
      ],
      [
        "p",
        "i"
      ],
      [
        "s",
        "ide"
      ],
      [
        "u",
        "s"
      ],
      [
        "at",
        "ter"
      ],
      [
        "en",
        "ed"
      ],
      [
        "le",
        "s"
      ],
      [
        "you",
        "r"
      ],
      [
        "ti",
        "on"
      ],
      [
        "go",
        "ing"
      ],
      [
        "fe",
        "et"
      ],
      [
        "too",
        "k"
      ],
      [
        "co",
        "m"
      ],
      [
        "Cat",
        "erpillar"
      ],
      [
        "tw",
        "o"
      ],
      [
        "M",
        "ar"
      ],
      [
        "c",
        "all"
      ],
      [
        "d",
        "ge"
      ],
      [
        "g",
        "s"
      ],
      [
        "m",
        "ar"
      ],
      [
        "p",
        "leas"
      ],
      [
        "r",
        "an"
      ],
      [
        "u",
        "se"
      ],
      [
        "w",
        "a"
      ],
      [
        "on",
        "ce"
      ],
      [
        "sa",
        "me"
      ],
      [
        "be",
        "fore"
      ],
      [
        "no",
        "thing"
      ],
      [
        "see",
        "med"
      ],
      [
        "su",
        "dden"
      ],
      [
        "Wh",
        "at"
      ],
      [
        "look",
        "ing"
      ],
      [
        "pl",
        "ay"
      ],
      [
        "hi",
        "gh"
      ],
      [
        "A",
        "s"
      ],
      [
        "D",
        "o"
      ],
      [
        "H",
        "e"
      ],
      [
        "c",
        "ried"
      ],
      [
        "c",
        "our"
      ],
      [
        "f",
        "oot"
      ],
      [
        "g",
        "lo"
      ],
      [
        "i",
        "ther"
      ],
      [
        "m",
        "in"
      ],
      [
        "m",
        "id"
      ],
      [
        "m",
        "all"
      ],
      [
        "m",
        "ust"
      ],
      [
        "m",
        "ouse"
      ],
      [
        "x",
        "t"
      ],
      [
        "z",
        "e"
      ],
      [
        "an",
        "g"
      ],
      [
        "to",
        "ne"
      ],
      [
        "th",
        "r"
      ],
      [
        "or",
        "t"
      ],
      [
        "ke",
        "y"
      ],
      [
        "no",
        "ti"
      ],
      [
        "ne",
        "ar"
      ],
      [
        "ne",
        "ver"
      ],
      [
        "ra",
        "ther"
      ],
      [
        "some",
        "thing"
      ],
      [
        "ry",
        "ing"
      ],
      [
        "fu",
        "ll"
      ],
      [
        "ey",
        "es"
      ],
      [
        "glo",
        "ves"
      ],
      [
        "min",
        "ut"
      ],
      [
        "N",
        "o"
      ],
      [
        "T",
        "h"
      ],
      [
        "a",
        "h"
      ],
      [
        "b",
        "le"
      ],
      [
        "d",
        "er"
      ],
      [
        "d",
        "ay"
      ],
      [
        "g",
        "las"
      ],
      [
        "g",
        "ood"
      ],
      [
        "h",
        "as"
      ],
      [
        "m",
        "p"
      ],
      [
        "m",
        "an"
      ],
      [
        "p",
        "ut"
      ],
      [
        "s",
        "to"
      ],
      [
        "s",
        "mall"
      ],
      [
        "t",
        "en"
      ],
      [
        "t",
        "tle"
      ],
      [
        "t",
        "ain"
      ],
      [
        "t",
        "ake"
      ],
      [
        "the",
        "ir"
      ],
      [
        "an",
        "other"
      ],
      [
        "re",
        "ad"
      ],
      [
        "en",
        "ce"
      ],
      [
        "se",
        "t"
      ],
      [
        "me",
        "an"
      ],
      [
        "oo",
        "l"
      ],
      [
        "ne",
        "xt"
      ],
      [
        "--",
        "\""
      ],
      [
        "qu",
        "et"
      ],
      [
        "qu",
        "est"
      ],
      [
        "su",
        "ch"
      ],
      [
        "am",
        "ong"
      ],
      [
        "te",
        "ll"
      ],
      [
        "co",
        "me"
      ],
      [
        "pp",
        "ed"
      ],
      [
        "si",
        "ze"
      ],
      [
        "af",
        "ter"
      ],
      [
        "cro",
        "quet"
      ],
      [
        "fa",
        "ce"
      ],
      [
        "mad",
        "e"
      ],
      [
        "call",
        "ed"
      ],
      [
        "glas",
        "s"
      ],
      [
        "A",
        "t"
      ],
      [
        "B",
        "ut"
      ],
      [
        "H",
        "E"
      ],
      [
        "K",
        "ing"
      ],
      [
        "W",
        "e"
      ],
      [
        "c",
        "ed"
      ],
      [
        "f",
        "all"
      ],
      [
        "h",
        "all"
      ],
      [
        "h",
        "al"
      ],
      [
        "i",
        "re"
      ],
      [
        "n",
        "ed"
      ],
      [
        "p",
        "as"
      ],
      [
        "t",
        "re"
      ],
      [
        "u",
        "ck"
      ],
      [
        "v",
        "en"
      ],
      [
        "w",
        "al"
      ],
      [
        "w",
        "ind"
      ],
      [
        "w",
        "ish"
      ],
      [
        "he",
        "ar"
      ],
      [
        "he",
        "dge"
      ],
      [
        "in",
        "e"
      ],
      [
        "re",
        "p"
      ],
      [
        "th",
        "an"
      ],
      [
        "be",
        "en"
      ],
      [
        "all",
        "y"
      ],
      [
        "ri",
        "ous"
      ],
      [
        "The",
        "n"
      ],
      [
        "Wh",
        "ite"
      ],
      [
        "op",
        "e"
      ],
      [
        "get",
        "ting"
      ],
      [
        "bo",
        "ttle"
      ],
      [
        "erp",
        "ent"
      ],
      [
        "cat",
        "s"
      ],
      [
        "grow",
        "ing"
      ],
      [
        "sudden",
        "ly"
      ],
      [
        "thr",
        "ough"
      ],
      [
        "quest",
        "ion"
      ],
      [
        "hal",
        "f"
      ],
      [
        "C",
        "o"
      ],
      [
        "H",
        "are"
      ],
      [
        "H",
        "atter"
      ],
      [
        "N",
        "D"
      ],
      [
        "T",
        "HE"
      ],
      [
        "a",
        "p"
      ],
      [
        "a",
        "u"
      ],
      [
        "a",
        "me"
      ],
      [
        "a",
        "ch"
      ],
      [
        "a",
        "king"
      ],
      [
        "b",
        "ir"
      ],
      [
        "c",
        "er"
      ],
      [
        "c",
        "lo"
      ],
      [
        "c",
        "tion"
      ],
      [
        "e",
        "l"
      ],
      [
        "e",
        "ar"
      ],
      [
        "e",
        "very"
      ],
      [
        "e",
        "ither"
      ],
      [
        "f",
        "t"
      ],
      [
        "h",
        "ard"
      ],
      [
        "i",
        "l"
      ],
      [
        "o",
        "se"
      ],
      [
        "p",
        "t"
      ],
      [
        "p",
        "ool"
      ],
      [
        "s",
        "it"
      ],
      [
        "t",
        "ried"
      ],
      [
        "v",
        "i"
      ],
      [
        "w",
        "ill"
      ],
      [
        "in",
        "king"
      ],
      [
        "at",
        "ch"
      ],
      [
        "th",
        "ree"
      ],
      [
        "th",
        "ose"
      ],
      [
        "en",
        "d"
      ],
      [
        "ow",
        "ed"
      ],
      [
        "le",
        "ep"
      ],
      [
        "le",
        "ft"
      ],
      [
        "ge",
        "on"
      ],
      [
        "wh",
        "y"
      ],
      [
        "wh",
        "ite"
      ],
      [
        "ti",
        "ll"
      ],
      [
        "ti",
        "ly"
      ],
      [
        "sh",
        "room"
      ],
      [
        "ent",
        "ly"
      ],
      [
        "with",
        "out"
      ],
      [
        "ur",
        "p"
      ],
      [
        "Wh",
        "y"
      ],
      [
        "che",
        "s"
      ],
      [
        "mu",
        "shroom"
      ],
      [
        "art",
        "y"
      ],
      [
        "cro",
        "ss"
      ],
      [
        "won",
        "der"
      ],
      [
        "tal",
        "king"
      ],
      [
        "Mar",
        "ch"
      ],
      [
        "pleas",
        "e"
      ],
      [
        "wa",
        "it"
      ],
      [
        "Do",
        "do"
      ],
      [
        "cour",
        "se"
      ],
      [
        "full",
        "y"
      ],
      [
        "minut",
        "e"
      ],
      [
        "Th",
        "at"
      ],
      [
        "has",
        "tily"
      ],
      [
        "wind",
        "ow"
      ],
      [
        "Co",
        "me"
      ],
      [
        "bir",
        "ds"
      ],
      [
        "clo",
        "se"
      ],
      [
        "A",
        "R"
      ],
      [
        "A",
        "f"
      ],
      [
        "A",
        "n"
      ],
      [
        "D",
        "in"
      ],
      [
        "I",
        "I"
      ],
      [
        "I",
        "n"
      ],
      [
        "J",
        "ust"
      ],
      [
        "O",
        "f"
      ],
      [
        "P",
        "i"
      ],
      [
        "T",
        "his"
      ],
      [
        "b",
        "b"
      ],
      [
        "b",
        "ab"
      ],
      [
        "c",
        "reat"
      ],
      [
        "d",
        "y"
      ],
      [
        "d",
        "ry"
      ],
      [
        "e",
        "at"
      ],
      [
        "f",
        "l"
      ],
      [
        "h",
        "im"
      ],
      [
        "i",
        "st"
      ],
      [
        "i",
        "ve"
      ],
      [
        "j",
        "u"
      ],
      [
        "m",
        "or"
      ],
      [
        "m",
        "ind"
      ],
      [
        "m",
        "ight"
      ],
      [
        "p",
        "ro"
      ],
      [
        "p",
        "air"
      ],
      [
        "p",
        "arty"
      ],
      [
        "r",
        "ow"
      ],
      [
        "r",
        "is"
      ],
      [
        "s",
        "ir"
      ],
      [
        "s",
        "ation"
      ],
      [
        "s",
        "too"
      ],
      [
        "s",
        "ort"
      ],
      [
        "s",
        "erpent"
      ],
      [
        "s",
        "urp"
      ],
      [
        "t",
        "a"
      ],
      [
        "t",
        "ed"
      ],
      [
        "t",
        "ree"
      ],
      [
        "t",
        "rying"
      ],
      [
        "v",
        "ing"
      ],
      [
        "w",
        "ood"
      ],
      [
        "z",
        "es"
      ],
      [
        "an",
        "im"
      ],
      [
        "re",
        "mar"
      ],
      [
        "as",
        "t"
      ],
      [
        "to",
        "ge"
      ],
      [
        "en",
        "ough"
      ],
      [
        "li",
        "ed"
      ],
      [
        "le",
        "ave"
      ],
      [
        "or",
        "n"
      ],
      [
        "ad",
        "ded"
      ],
      [
        "ch",
        "an"
      ],
      [
        "ld",
        "en"
      ],
      [
        "ti",
        "mid"
      ],
      [
        "go",
        "lden"
      ],
      [
        "ur",
        "y"
      ],
      [
        "ss",
        "ed"
      ],
      [
        "ard",
        "s"
      ],
      [
        "ca",
        "use"
      ],
      [
        "fe",
        "lt"
      ],
      [
        "ra",
        "ce"
      ],
      [
        "ra",
        "id"
      ],
      [
        "op",
        "en"
      ],
      [
        "op",
        "ened"
      ],
      [
        "te",
        "a"
      ],
      [
        "po",
        "or"
      ],
      [
        "pl",
        "ain"
      ],
      [
        "whi",
        "le"
      ],
      [
        "cu",
        "rious"
      ],
      [
        "any",
        "thing"
      ],
      [
        "fu",
        "l"
      ],
      [
        "ide",
        "a"
      ],
      [
        "art",
        "s"
      ],
      [
        "wor",
        "ds"
      ],
      [
        "af",
        "raid"
      ],
      [
        "mb",
        "ling"
      ],
      [
        "ure",
        "s"
      ],
      [
        "di",
        "re"
      ],
      [
        "How",
        "ever"
      ],
      [
        "tur",
        "ned"
      ],
      [
        "cr",
        "ow"
      ],
      [
        "hur",
        "ried"
      ],
      [
        "tal",
        "k"
      ],
      [
        "ha",
        "pp"
      ],
      [
        "noti",
        "ced"
      ],
      [
        "wal",
        "ked"
      ],
      [
        "rep",
        "lied"
      ],
      [
        "cer",
        "tain"
      ],
      [
        "sit",
        "ting"
      ],
      [
        "Af",
        "ter"
      ],
      [
        "Din",
        "ah"
      ],
      [
        "Pi",
        "geon"
      ],
      [
        "bab",
        "y"
      ],
      [
        "anim",
        "al"
      ],
      [
        "toge",
        "ther"
      ],
      [
        "'",
        "\""
      ],
      [
        "B",
        "ill"
      ],
      [
        "C",
        "he"
      ],
      [
        "D",
        "or"
      ],
      [
        "F",
        "oot"
      ],
      [
        "N",
        "ow"
      ],
      [
        "R",
        "A"
      ],
      [
        "W",
        "ould"
      ],
      [
        "W",
        "hen"
      ],
      [
        "W",
        "here"
      ],
      [
        "_",
        "I"
      ],
      [
        "_",
        "that"
      ],
      [
        "a",
        "cross"
      ],
      [
        "b",
        "ro"
      ],
      [
        "b",
        "ook"
      ],
      [
        "b",
        "right"
      ],
      [
        "c",
        "ke"
      ],
      [
        "c",
        "ur"
      ],
      [
        "d",
        "r"
      ],
      [
        "d",
        "le"
      ],
      [
        "d",
        "ly"
      ],
      [
        "e",
        "ed"
      ],
      [
        "f",
        "ar"
      ],
      [
        "f",
        "right"
      ],
      [
        "g",
        "one"
      ],
      [
        "i",
        "g"
      ],
      [
        "i",
        "ck"
      ],
      [
        "i",
        "ous"
      ],
      [
        "k",
        "en"
      ],
      [
        "k",
        "id"
      ],
      [
        "k",
        "ne"
      ],
      [
        "l",
        "ad"
      ],
      [
        "n",
        "i"
      ],
      [
        "p",
        "a"
      ],
      [
        "p",
        "u"
      ],
      [
        "p",
        "re"
      ],
      [
        "r",
        "u"
      ],
      [
        "r",
        "ing"
      ],
      [
        "r",
        "ate"
      ],
      [
        "s",
        "p"
      ],
      [
        "s",
        "at"
      ],
      [
        "s",
        "ne"
      ],
      [
        "s",
        "pe"
      ],
      [
        "s",
        "leep"
      ],
      [
        "t",
        "in"
      ],
      [
        "t",
        "ter"
      ],
      [
        "v",
        "ed"
      ],
      [
        "w",
        "he"
      ],
      [
        "in",
        "ches"
      ],
      [
        "an",
        "ce"
      ],
      [
        "re",
        "n"
      ],
      [
        "re",
        "t"
      ],
      [
        "en",
        "er"
      ],
      [
        "en",
        "ded"
      ],
      [
        "le",
        "ss"
      ],
      [
        "sa",
        "w"
      ],
      [
        "be",
        "st"
      ],
      [
        "ch",
        "im"
      ],
      [
        "ke",
        "pt"
      ],
      [
        "wh",
        "is"
      ],
      [
        "ri",
        "al"
      ],
      [
        "ri",
        "zes"
      ],
      [
        "sh",
        "out"
      ],
      [
        "sh",
        "ire"
      ],
      [
        "The",
        "y"
      ],
      [
        "ne",
        "y"
      ],
      [
        "ne",
        "ck"
      ],
      [
        "ca",
        "ke"
      ],
      [
        "fe",
        "ll"
      ],
      [
        "ind",
        "eed"
      ],
      [
        "Wh",
        "o"
      ],
      [
        "gr",
        "in"
      ],
      [
        "again",
        "st"
      ],
      [
        "lo",
        "ve"
      ],
      [
        "off",
        "ended"
      ],
      [
        "de",
        "al"
      ],
      [
        "beg",
        "in"
      ],
      [
        "time",
        "s"
      ],
      [
        "bo",
        "x"
      ],
      [
        "bo",
        "dy"
      ],
      [
        "hand",
        "s"
      ],
      [
        "wor",
        "k"
      ],
      [
        "arm",
        "s"
      ],
      [
        "tur",
        "ning"
      ],
      [
        "mar",
        "ked"
      ],
      [
        "We",
        "ll"
      ],
      [
        "hedge",
        "ho"
      ],
      [
        "stoo",
        "d"
      ],
      [
        "chan",
        "ge"
      ],
      [
        "dire",
        "ction"
      ],
      [
        "Che",
        "shire"
      ],
      [
        "Dor",
        "mouse"
      ],
      [
        "Foot",
        "man"
      ],
      [
        "cke",
        "t"
      ],
      [
        "sne",
        "e"
      ],
      [
        "chim",
        "ney"
      ],
      [
        ")",
        ","
      ],
      [
        "A",
        "D"
      ],
      [
        "A",
        "ND"
      ],
      [
        "B",
        "I"
      ],
      [
        "E",
        "n"
      ],
      [
        "F",
        "or"
      ],
      [
        "F",
        "irst"
      ],
      [
        "I",
        "N"
      ],
      [
        "I",
        "f"
      ],
      [
        "K",
        "n"
      ],
      [
        "L",
        "E"
      ],
      [
        "L",
        "et"
      ],
      [
        "O",
        "n"
      ],
      [
        "S",
        "u"
      ],
      [
        "W",
        "ill"
      ],
      [
        "_",
        "is"
      ],
      [
        "_",
        "you"
      ],
      [
        "_",
        "not"
      ],
      [
        "_",
        "what"
      ],
      [
        "a",
        "k"
      ],
      [
        "a",
        "ct"
      ],
      [
        "c",
        "orn"
      ],
      [
        "d",
        "re"
      ],
      [
        "d",
        "ar"
      ],
      [
        "d",
        "ro"
      ],
      [
        "d",
        "one"
      ],
      [
        "e",
        "ce"
      ],
      [
        "e",
        "ven"
      ],
      [
        "g",
        "er"
      ],
      [
        "g",
        "li"
      ],
      [
        "g",
        "ave"
      ],
      [
        "g",
        "ue"
      ],
      [
        "g",
        "ame"
      ],
      [
        "g",
        "ener"
      ],
      [
        "h",
        "ope"
      ],
      [
        "i",
        "she"
      ],
      [
        "i",
        "ly"
      ],
      [
        "i",
        "ld"
      ],
      [
        "k",
        "y"
      ],
      [
        "l",
        "ate"
      ],
      [
        "m",
        "n"
      ],
      [
        "o",
        "l"
      ],
      [
        "p",
        "s"
      ],
      [
        "p",
        "at"
      ],
      [
        "r",
        "on"
      ],
      [
        "r",
        "id"
      ],
      [
        "r",
        "un"
      ],
      [
        "r",
        "inking"
      ],
      [
        "s",
        "li"
      ],
      [
        "s",
        "ent"
      ],
      [
        "s",
        "ion"
      ],
      [
        "s",
        "ound"
      ],
      [
        "s",
        "po"
      ],
      [
        "s",
        "low"
      ],
      [
        "w",
        "ant"
      ],
      [
        "x",
        "ious"
      ],
      [
        "y",
        "et"
      ],
      [
        "z",
        "ing"
      ],
      [
        "he",
        "ight"
      ],
      [
        "the",
        "se"
      ],
      [
        "an",
        "sw"
      ],
      [
        "an",
        "xious"
      ],
      [
        "ou",
        "ble"
      ],
      [
        "it",
        "self"
      ],
      [
        "at",
        "er"
      ],
      [
        "re",
        "me"
      ],
      [
        "re",
        "ly"
      ],
      [
        "re",
        "ach"
      ],
      [
        "as",
        "ked"
      ],
      [
        "on",
        "s"
      ],
      [
        "ll",
        "owed"
      ],
      [
        "ar",
        "p"
      ],
      [
        "ar",
        "ch"
      ],
      [
        "se",
        "en"
      ],
      [
        "sa",
        "ge"
      ],
      [
        "st",
        "and"
      ],
      [
        "st",
        "art"
      ],
      [
        "st",
        "ance"
      ],
      [
        "be",
        "au"
      ],
      [
        "ch",
        "in"
      ],
      [
        "ch",
        "ang"
      ],
      [
        "ch",
        "ild"
      ],
      [
        "ver",
        "sation"
      ],
      [
        "ld",
        "i"
      ],
      [
        "ld",
        "ed"
      ],
      [
        "ti",
        "red"
      ],
      [
        "so",
        "ldi"
      ],
      [
        "al",
        "ong"
      ],
      [
        "sh",
        "ow"
      ],
      [
        "sh",
        "ri"
      ],
      [
        "sh",
        "ut"
      ],
      [
        "sh",
        "rinking"
      ],
      [
        "sh",
        "arp"
      ],
      [
        "do",
        "es"
      ],
      [
        "ro",
        "se"
      ],
      [
        "qu",
        "e"
      ],
      [
        "qu",
        "i"
      ],
      [
        "ss",
        "i"
      ],
      [
        "for",
        "got"
      ],
      [
        "ck",
        "ing"
      ],
      [
        "ck",
        "ed"
      ],
      [
        "ca",
        "re"
      ],
      [
        "su",
        "re"
      ],
      [
        "op",
        "le"
      ],
      [
        "che",
        "d"
      ],
      [
        "gr",
        "ound"
      ],
      [
        "te",
        "les"
      ],
      [
        "lar",
        "ger"
      ],
      [
        "po",
        "cket"
      ],
      [
        "po",
        "ssi"
      ],
      [
        "pe",
        "ep"
      ],
      [
        "pe",
        "ople"
      ],
      [
        "my",
        "self"
      ],
      [
        "fo",
        "llowed"
      ],
      [
        "ate",
        "ly"
      ],
      [
        "con",
        "fu"
      ],
      [
        "con",
        "versation"
      ],
      [
        "who",
        "le"
      ],
      [
        "fa",
        "ct"
      ],
      [
        "mb",
        "er"
      ],
      [
        "leas",
        "t"
      ],
      [
        "ant",
        "ly"
      ],
      [
        "make",
        "s"
      ],
      [
        "pi",
        "ece"
      ],
      [
        "com",
        "ing"
      ],
      [
        "Mar",
        "y"
      ],
      [
        "He",
        "re"
      ],
      [
        "He",
        "arts"
      ],
      [
        "mid",
        "dle"
      ],
      [
        "noti",
        "ce"
      ],
      [
        "pas",
        "sage"
      ],
      [
        "vi",
        "ol"
      ],
      [
        "wait",
        "ing"
      ],
      [
        "An",
        "n"
      ],
      [
        "Of",
        "f"
      ],
      [
        "ris",
        "ed"
      ],
      [
        "surp",
        "rised"
      ],
      [
        "timid",
        "ly"
      ],
      [
        "crow",
        "ded"
      ],
      [
        "happ",
        "en"
      ],
      [
        "certain",
        "ly"
      ],
      [
        "animal",
        "s"
      ],
      [
        "_I",
        "_"
      ],
      [
        "_that",
        "_"
      ],
      [
        "bro",
        "ken"
      ],
      [
        "ni",
        "bb"
      ],
      [
        "whe",
        "ther"
      ],
      [
        "En",
        "gli"
      ],
      [
        "Kn",
        "ave"
      ],
      [
        "_is",
        "_"
      ],
      [
        "_you",
        "_"
      ],
      [
        "_not",
        "_"
      ],
      [
        "_what",
        "_"
      ],
      [
        "ishe",
        "d"
      ],
      [
        "run",
        "ning"
      ],
      [
        "spo",
        "ke"
      ],
      [
        "slow",
        "ly"
      ],
      [
        "anxious",
        "ly"
      ],
      [
        "beau",
        "ti"
      ],
      [
        "teles",
        "c"
      ],
      [
        "Engli",
        "sh"
      ],
      [
        ")",
        "."
      ],
      [
        ".",
        "'"
      ],
      [
        ".",
        "."
      ],
      [
        "A",
        "re"
      ],
      [
        "B",
        "BI"
      ],
      [
        "C",
        "E"
      ],
      [
        "C",
        "an"
      ],
      [
        "E",
        "N"
      ],
      [
        "E",
        "R"
      ],
      [
        "H",
        "er"
      ],
      [
        "O",
        "ne"
      ],
      [
        "P",
        "at"
      ],
      [
        "Q",
        "U"
      ],
      [
        "R",
        "O"
      ],
      [
        "T",
        "ake"
      ],
      [
        "_",
        "was"
      ],
      [
        "b",
        "an"
      ],
      [
        "b",
        "ed"
      ],
      [
        "c",
        "ar"
      ],
      [
        "c",
        "ut"
      ],
      [
        "c",
        "ook"
      ],
      [
        "c",
        "ry"
      ],
      [
        "d",
        "if"
      ],
      [
        "e",
        "g"
      ],
      [
        "e",
        "k"
      ],
      [
        "e",
        "as"
      ],
      [
        "e",
        "ach"
      ],
      [
        "f",
        "i"
      ],
      [
        "f",
        "in"
      ],
      [
        "f",
        "ur"
      ],
      [
        "f",
        "low"
      ],
      [
        "f",
        "ire"
      ],
      [
        "g",
        "g"
      ],
      [
        "g",
        "ive"
      ],
      [
        "g",
        "lad"
      ],
      [
        "h",
        "ook"
      ],
      [
        "h",
        "ind"
      ],
      [
        "i",
        "se"
      ],
      [
        "i",
        "am"
      ],
      [
        "j",
        "ury"
      ],
      [
        "k",
        "no"
      ],
      [
        "l",
        "a"
      ],
      [
        "l",
        "p"
      ],
      [
        "l",
        "ou"
      ],
      [
        "l",
        "ence"
      ],
      [
        "m",
        "ou"
      ],
      [
        "m",
        "any"
      ],
      [
        "m",
        "aking"
      ],
      [
        "n",
        "ine"
      ],
      [
        "n",
        "ame"
      ],
      [
        "o",
        "re"
      ],
      [
        "p",
        "ard"
      ],
      [
        "p",
        "atter"
      ],
      [
        "p",
        "ort"
      ],
      [
        "p",
        "rizes"
      ],
      [
        "r",
        "at"
      ],
      [
        "r",
        "abbit"
      ],
      [
        "r",
        "ouble"
      ],
      [
        "s",
        "in"
      ],
      [
        "s",
        "ou"
      ]
    ]
  }
}